unsigned char fertilizer_model_tflite[] = {
  0x1c, 0x00, 0x00, 0x00, 0x54, 0x46, 0x4c, 0x33, 0x14, 0x00, 0x20, 0x00,
  0x1c, 0x00, 0x18, 0x00, 0x14, 0x00, 0x10, 0x00, 0x0c, 0x00, 0x00, 0x00,
  0x08, 0x00, 0x04, 0x00, 0x14, 0x00, 0x00, 0x00, 0x1c, 0x00, 0x00, 0x00,
  0x94, 0x00, 0x00, 0x00, 0xec, 0x00, 0x00, 0x00, 0xe8, 0x08, 0x00, 0x00,
  0xf8, 0x08, 0x00, 0x00, 0xac, 0x0e, 0x00, 0x00, 0x03, 0x00, 0x00, 0x00,
  0x01, 0x00, 0x00, 0x00, 0x10, 0x00, 0x00, 0x00, 0x00, 0x00, 0x0a, 0x00,
  0x10, 0x00, 0x0c, 0x00, 0x08, 0x00, 0x04, 0x00, 0x0a, 0x00, 0x00, 0x00,
  0x0c, 0x00, 0x00, 0x00, 0x1c, 0x00, 0x00, 0x00, 0x3c, 0x00, 0x00, 0x00,
  0x0f, 0x00, 0x00, 0x00, 0x73, 0x65, 0x72, 0x76, 0x69, 0x6e, 0x67, 0x5f,
  0x64, 0x65, 0x66, 0x61, 0x75, 0x6c, 0x74, 0x00, 0x01, 0x00, 0x00, 0x00,
  0x04, 0x00, 0x00, 0x00, 0x94, 0xff, 0xff, 0xff, 0x0a, 0x00, 0x00, 0x00,
  0x04, 0x00, 0x00, 0x00, 0x08, 0x00, 0x00, 0x00, 0x6f, 0x75, 0x74, 0x70,
  0x75, 0x74, 0x5f, 0x30, 0x00, 0x00, 0x00, 0x00, 0x01, 0x00, 0x00, 0x00,
  0x04, 0x00, 0x00, 0x00, 0xfe, 0xf6, 0xff, 0xff, 0x04, 0x00, 0x00, 0x00,
  0x0b, 0x00, 0x00, 0x00, 0x69, 0x6e, 0x70, 0x75, 0x74, 0x5f, 0x6c, 0x61,
  0x79, 0x65, 0x72, 0x00, 0x02, 0x00, 0x00, 0x00, 0x34, 0x00, 0x00, 0x00,
  0x04, 0x00, 0x00, 0x00, 0xdc, 0xff, 0xff, 0xff, 0x0d, 0x00, 0x00, 0x00,
  0x04, 0x00, 0x00, 0x00, 0x13, 0x00, 0x00, 0x00, 0x43, 0x4f, 0x4e, 0x56,
  0x45, 0x52, 0x53, 0x49, 0x4f, 0x4e, 0x5f, 0x4d, 0x45, 0x54, 0x41, 0x44,
  0x41, 0x54, 0x41, 0x00, 0x08, 0x00, 0x0c, 0x00, 0x08, 0x00, 0x04, 0x00,
  0x08, 0x00, 0x00, 0x00, 0x0c, 0x00, 0x00, 0x00, 0x04, 0x00, 0x00, 0x00,
  0x13, 0x00, 0x00, 0x00, 0x6d, 0x69, 0x6e, 0x5f, 0x72, 0x75, 0x6e, 0x74,
  0x69, 0x6d, 0x65, 0x5f, 0x76, 0x65, 0x72, 0x73, 0x69, 0x6f, 0x6e, 0x00,
  0x0e, 0x00, 0x00, 0x00, 0xf8, 0x07, 0x00, 0x00, 0xf0, 0x07, 0x00, 0x00,
  0x90, 0x06, 0x00, 0x00, 0x80, 0x03, 0x00, 0x00, 0x54, 0x03, 0x00, 0x00,
  0x14, 0x03, 0x00, 0x00, 0xc4, 0x02, 0x00, 0x00, 0xb4, 0x00, 0x00, 0x00,
  0xac, 0x00, 0x00, 0x00, 0xa4, 0x00, 0x00, 0x00, 0x9c, 0x00, 0x00, 0x00,
  0x94, 0x00, 0x00, 0x00, 0x74, 0x00, 0x00, 0x00, 0x04, 0x00, 0x00, 0x00,
  0xae, 0xf7, 0xff, 0xff, 0x04, 0x00, 0x00, 0x00, 0x60, 0x00, 0x00, 0x00,
  0x0c, 0x00, 0x00, 0x00, 0x08, 0x00, 0x0e, 0x00, 0x08, 0x00, 0x04, 0x00,
  0x08, 0x00, 0x00, 0x00, 0x10, 0x00, 0x00, 0x00, 0x28, 0x00, 0x00, 0x00,
  0x00, 0x00, 0x06, 0x00, 0x08, 0x00, 0x04, 0x00, 0x06, 0x00, 0x00, 0x00,
  0x04, 0x00, 0x00, 0x00, 0x01, 0x00, 0x00, 0x00, 0xea, 0x03, 0x00, 0x00,
  0x0c, 0x00, 0x18, 0x00, 0x14, 0x00, 0x10, 0x00, 0x0c, 0x00, 0x04, 0x00,
  0x0c, 0x00, 0x00, 0x00, 0x7b, 0xbd, 0xb3, 0x3c, 0xb3, 0x42, 0xd7, 0x1e,
  0x02, 0x00, 0x00, 0x00, 0x02, 0x00, 0x00, 0x00, 0x04, 0x00, 0x00, 0x00,
  0x06, 0x00, 0x00, 0x00, 0x32, 0x2e, 0x31, 0x39, 0x2e, 0x30, 0x00, 0x00,
  0x1a, 0xf8, 0xff, 0xff, 0x04, 0x00, 0x00, 0x00, 0x10, 0x00, 0x00, 0x00,
  0x31, 0x2e, 0x35, 0x2e, 0x30, 0x00, 0x00, 0x00, 0x00, 0x00, 0x00, 0x00,
  0x00, 0x00, 0x00, 0x00, 0x30, 0xf3, 0xff, 0xff, 0x34, 0xf3, 0xff, 0xff,
  0x38, 0xf3, 0xff, 0xff, 0x3c, 0xf3, 0xff, 0xff, 0x46, 0xf8, 0xff, 0xff,
  0x04, 0x00, 0x00, 0x00, 0x00, 0x02, 0x00, 0x00, 0x09, 0x6e, 0x13, 0x3e,
  0x0f, 0xda, 0x60, 0xbe, 0x19, 0x37, 0x09, 0x3f, 0x74, 0xf2, 0x12, 0x3f,
  0x62, 0xd9, 0xdf, 0xbe, 0xaa, 0x81, 0x74, 0xbe, 0x0b, 0x65, 0x66, 0x3e,
  0x7e, 0x12, 0xc4, 0xbe, 0x30, 0xb4, 0x9c, 0x3d, 0x89, 0xfa, 0xbc, 0x3d,
  0xa5, 0x64, 0xda, 0xbe, 0x53, 0x63, 0x85, 0xbd, 0x9b, 0x56, 0xaf, 0x3e,
  0xdc, 0x54, 0x3c, 0x3f, 0x5b, 0x23, 0x1f, 0xbe, 0xa5, 0xf3, 0x03, 0xbf,
  0xdc, 0x27, 0xf4, 0x3c, 0x5a, 0x36, 0x7b, 0x3e, 0xb9, 0x04, 0xa4, 0xbe,
  0x07, 0xce, 0x09, 0xbe, 0xd0, 0x81, 0xf3, 0x3e, 0xf5, 0xe8, 0x04, 0xbd,
  0x6a, 0xd1, 0xd3, 0x3e, 0x2c, 0x87, 0x2b, 0xbf, 0x1d, 0x6d, 0xf7, 0xbe,
  0xef, 0xf1, 0x0f, 0xbe, 0xd2, 0x70, 0xee, 0xbe, 0x59, 0xc9, 0x0b, 0xbd,
  0x6e, 0xc6, 0xad, 0x3e, 0xd6, 0x29, 0xfb, 0x3e, 0xc9, 0x82, 0xf8, 0xbe,
  0x87, 0xf1, 0x63, 0xbe, 0xdb, 0xfc, 0x00, 0xbd, 0x05, 0x3e, 0xb0, 0xbe,
  0xfe, 0xbb, 0x44, 0xbe, 0x44, 0x87, 0x60, 0x3e, 0x01, 0xbd, 0x60, 0xbd,
  0xe6, 0xe2, 0x79, 0x3c, 0x67, 0xa2, 0xe5, 0xbe, 0x36, 0x63, 0xf5, 0x3c,
  0xa7, 0xf1, 0xf4, 0x3e, 0x21, 0x0c, 0xba, 0x3e, 0x6c, 0x9e, 0x26, 0xbe,
  0xe7, 0xd2, 0x08, 0x3f, 0xf8, 0x94, 0xc2, 0xbe, 0x25, 0xab, 0xc0, 0xbc,
  0xe2, 0x96, 0xe3, 0xbe, 0x1c, 0xb1, 0x32, 0x3f, 0x3c, 0xc1, 0xbc, 0x3e,
  0xa7, 0x40, 0x61, 0xbe, 0xc5, 0x3e, 0xdc, 0x3e, 0x65, 0xf2, 0x17, 0x3f,
  0xc9, 0xe6, 0x08, 0xbd, 0xde, 0xed, 0x4d, 0x3e, 0x2f, 0x0a, 0x67, 0xbe,
  0x18, 0x2b, 0x2e, 0x3d, 0xcc, 0xaa, 0x10, 0xbe, 0x43, 0xc7, 0xbc, 0xbd,
  0x6c, 0x00, 0x68, 0x3e, 0xf4, 0x6a, 0x2f, 0xbd, 0xe4, 0x43, 0x2c, 0x3e,
  0x32, 0x35, 0x41, 0x3f, 0xf2, 0x12, 0x3d, 0x3c, 0x8f, 0xf9, 0x40, 0xbf,
  0xd8, 0x44, 0x0d, 0xbf, 0xa6, 0x1b, 0x02, 0xbe, 0x2a, 0x86, 0xd9, 0x3d,
  0x06, 0x23, 0x35, 0x3e, 0x9d, 0x39, 0xa9, 0xbe, 0xda, 0x1d, 0xf8, 0xbe,
  0x72, 0xec, 0x0f, 0x3f, 0xdd, 0x25, 0x2c, 0x3d, 0xc7, 0x04, 0x8b, 0xbc,
  0xc8, 0xaa, 0xe9, 0x3d, 0x4b, 0xba, 0xeb, 0xbe, 0x23, 0x6f, 0xcb, 0x3e,
  0x58, 0x68, 0xdb, 0x3e, 0xdc, 0x9b, 0xc4, 0xbd, 0x53, 0xf8, 0x1d, 0x3f,
  0x70, 0xf1, 0xe3, 0xbb, 0x77, 0x11, 0xa1, 0xbe, 0x9d, 0xa5, 0x43, 0x3e,
  0x02, 0x8c, 0x9a, 0x3d, 0x82, 0xf0, 0x3a, 0xbe, 0x2a, 0xff, 0x96, 0xbe,
  0x1e, 0x5c, 0x48, 0x3f, 0x2e, 0x94, 0x9e, 0xbe, 0x11, 0x84, 0xe4, 0xbd,
  0x71, 0xfa, 0x83, 0xbe, 0x63, 0x99, 0x8c, 0xbe, 0x31, 0xd8, 0x64, 0xbe,
  0x5a, 0x30, 0x51, 0x3e, 0xe6, 0x27, 0x0b, 0x3f, 0x51, 0x5a, 0x72, 0xbe,
  0xfc, 0x4e, 0x4d, 0xbf, 0xa5, 0x77, 0xd9, 0xbe, 0xb5, 0x8c, 0x7b, 0x3d,
  0xb6, 0xbc, 0x98, 0x3e, 0xd0, 0x4d, 0xdc, 0x3d, 0x89, 0x37, 0xb9, 0x3e,
  0x69, 0x4f, 0x8b, 0xbe, 0x66, 0x54, 0x8a, 0x3e, 0x38, 0x2f, 0x92, 0xbd,
  0x16, 0x4d, 0xdb, 0x3d, 0x4b, 0x27, 0x8e, 0x3e, 0x9e, 0x12, 0x81, 0x3e,
  0xa3, 0x58, 0xf1, 0x3d, 0xe2, 0x3f, 0x4b, 0x3e, 0xef, 0x44, 0x41, 0x3d,
  0x41, 0x07, 0x2e, 0xbf, 0x97, 0xfb, 0x3e, 0x3f, 0xe3, 0x8c, 0x9f, 0x3e,
  0xcb, 0xd8, 0x97, 0x3e, 0x31, 0x98, 0x08, 0x3f, 0x0c, 0x06, 0xff, 0xbb,
  0x91, 0x7c, 0x98, 0x3d, 0x7f, 0xb7, 0x31, 0x3e, 0x40, 0xf7, 0x26, 0x3f,
  0xc2, 0xd3, 0xe4, 0xbe, 0x22, 0x37, 0xa8, 0x3e, 0xa1, 0xf8, 0x84, 0x3d,
  0xf7, 0x1e, 0xe1, 0xbd, 0x58, 0x31, 0x05, 0x3e, 0x19, 0xe1, 0xea, 0xbe,
  0x3f, 0xbf, 0x45, 0x3e, 0x7f, 0x4d, 0xba, 0xbe, 0x4b, 0xb8, 0xb9, 0xbe,
  0x26, 0x84, 0x33, 0x3f, 0x52, 0xfa, 0xff, 0xff, 0x04, 0x00, 0x00, 0x00,
  0x40, 0x00, 0x00, 0x00, 0x87, 0x4a, 0x94, 0x3d, 0x47, 0x94, 0x77, 0x3e,
  0x34, 0xda, 0x8f, 0x3d, 0x25, 0xc5, 0x36, 0x3e, 0xdf, 0x2f, 0xea, 0x3d,
  0x5b, 0x08, 0x0d, 0x3e, 0x93, 0x3c, 0xa8, 0xbd, 0x7c, 0xa9, 0xa0, 0xbd,
  0x79, 0x64, 0x2d, 0x3e, 0x28, 0x12, 0xe0, 0x3d, 0xfb, 0xee, 0x43, 0x3e,
  0x6e, 0xf0, 0xbc, 0x3e, 0xad, 0x65, 0x3a, 0x3e, 0x9a, 0x52, 0x10, 0x3e,
  0xad, 0x21, 0xa3, 0x3e, 0xbc, 0xe5, 0xa4, 0x3e, 0x9e, 0xfa, 0xff, 0xff,
  0x04, 0x00, 0x00, 0x00, 0x30, 0x00, 0x00, 0x00, 0x33, 0xe0, 0x62, 0x3c,
  0xeb, 0x38, 0x21, 0x3e, 0xd5, 0x26, 0x9b, 0xbc, 0xad, 0xa9, 0x00, 0x3e,
  0xa8, 0x40, 0x31, 0x3d, 0x55, 0x7f, 0x82, 0x3e, 0xaf, 0xa8, 0xed, 0x3d,
  0x58, 0x11, 0x32, 0x3e, 0x64, 0x40, 0x67, 0xbd, 0x7d, 0x14, 0x6c, 0x3d,
  0xb5, 0x95, 0x38, 0x3e, 0x50, 0x03, 0x1e, 0x3e, 0xda, 0xfa, 0xff, 0xff,
  0x04, 0x00, 0x00, 0x00, 0x1c, 0x00, 0x00, 0x00, 0x38, 0xc4, 0x10, 0xbe,
  0x61, 0xb2, 0xf6, 0x3d, 0x9b, 0xeb, 0x46, 0xbe, 0xe1, 0x48, 0x9f, 0xba,
  0x5f, 0xb8, 0xd1, 0x3d, 0x5b, 0x8a, 0x79, 0x3d, 0xfa, 0x60, 0x9b, 0xbc,
  0x02, 0xfb, 0xff, 0xff, 0x04, 0x00, 0x00, 0x00, 0x00, 0x03, 0x00, 0x00,
  0x84, 0x5b, 0x93, 0xbd, 0x84, 0x4c, 0xcf, 0xbe, 0x0d, 0xe9, 0x5a, 0x3d,
  0xda, 0x95, 0x23, 0xbe, 0x5a, 0xe3, 0x40, 0x3e, 0x68, 0x2d, 0x94, 0x3e,
  0x90, 0x97, 0x95, 0x3e, 0xac, 0x4a, 0xcf, 0xbd, 0xd5, 0x32, 0x9a, 0x3e,
  0x41, 0x61, 0x00, 0xbf, 0x2a, 0xf5, 0x16, 0xbe, 0xaa, 0x91, 0xac, 0x3d,
  0x7f, 0xd7, 0xc6, 0x3e, 0x84, 0xea, 0x89, 0xbd, 0x2b, 0xd4, 0x7b, 0x3e,
  0xc2, 0x47, 0xa2, 0xbd, 0x79, 0xde, 0x00, 0x3f, 0xa9, 0x0f, 0x8a, 0xbe,
  0x16, 0x69, 0x85, 0xbe, 0x50, 0xa9, 0xcd, 0x3e, 0xa2, 0xc6, 0x28, 0x3d,
  0x24, 0x06, 0xe9, 0x3e, 0x88, 0x47, 0xae, 0x3e, 0x96, 0x87, 0x81, 0xbe,
  0xbb, 0x75, 0x04, 0x3f, 0xad, 0x0b, 0x3c, 0x3e, 0xe4, 0xbc, 0x71, 0xbc,
  0xf1, 0x58, 0xdd, 0x3e, 0x4e, 0x6a, 0x10, 0xbe, 0x87, 0x0e, 0x21, 0xbe,
  0xbd, 0x2e, 0x6d, 0xbd, 0x35, 0x31, 0x31, 0x3f, 0x2b, 0x84, 0xf0, 0x3d,
  0x80, 0x7b, 0xe8, 0x3c, 0x29, 0xf6, 0x6c, 0x3e, 0x1c, 0xad, 0x44, 0x3e,
  0xb8, 0xe4, 0x13, 0xbe, 0xc8, 0x26, 0x47, 0xbe, 0x8d, 0x97, 0x0a, 0x3e,
  0x41, 0x1c, 0x0c, 0x3c, 0xff, 0x1a, 0xdc, 0x3e, 0xe4, 0x45, 0xde, 0x3e,
  0x4e, 0xf8, 0xee, 0xbd, 0x15, 0xeb, 0xc5, 0x3e, 0xdb, 0x40, 0x02, 0xbf,
  0xb9, 0x9b, 0x76, 0x3e, 0xaf, 0x23, 0xae, 0xbe, 0xf6, 0x21, 0x05, 0xbf,
  0x4d, 0x3f, 0x93, 0xbd, 0x0c, 0x32, 0x34, 0x3e, 0xb4, 0x4c, 0x36, 0xbd,
  0x48, 0x3f, 0xbf, 0x3e, 0x1d, 0x1a, 0x24, 0xbf, 0x5a, 0xcb, 0x87, 0xbe,
  0x30, 0x02, 0x48, 0xbd, 0xb8, 0x79, 0x53, 0x3e, 0x0b, 0x3c, 0xfe, 0x3e,
  0x13, 0x5e, 0xa9, 0x3e, 0x3b, 0xad, 0xca, 0x3d, 0xd9, 0x4a, 0x81, 0xbe,
  0x6b, 0x44, 0x02, 0x3f, 0x66, 0xeb, 0x54, 0x3f, 0x85, 0x1b, 0x37, 0xbd,
  0x12, 0x89, 0x65, 0xbe, 0x2c, 0xbf, 0xc2, 0x3e, 0xdf, 0xa5, 0x54, 0xbe,
  0xcc, 0xb8, 0x44, 0x3e, 0x17, 0x34, 0x0d, 0xbd, 0x92, 0x33, 0x49, 0x3e,
  0x0e, 0x0b, 0x15, 0xbf, 0xcd, 0x95, 0x33, 0x3e, 0x76, 0xb5, 0x96, 0x3e,
  0x6b, 0x02, 0x9e, 0x3c, 0xda, 0x43, 0x04, 0x3e, 0x97, 0x7c, 0x2b, 0xbe,
  0x0b, 0x49, 0x7f, 0xbe, 0xfb, 0x11, 0xbb, 0xbe, 0x54, 0x59, 0x6e, 0x3e,
  0xd3, 0xd1, 0xb3, 0xbe, 0x9a, 0xb8, 0xc0, 0xbe, 0x74, 0x65, 0x92, 0x3e,
  0x1e, 0x05, 0x6f, 0x3e, 0x3e, 0xd3, 0x2d, 0xbe, 0x6c, 0x5d, 0x59, 0x3c,
  0x9a, 0x59, 0x00, 0x3e, 0x01, 0x1b, 0xf0, 0xbb, 0x0e, 0xb7, 0x18, 0x3e,
  0xda, 0xd1, 0xb5, 0xbe, 0x91, 0xde, 0x53, 0xbe, 0x62, 0xfc, 0x32, 0x3b,
  0xc5, 0x94, 0x1c, 0x3c, 0x1e, 0xb7, 0x09, 0x3f, 0x7a, 0x50, 0x9d, 0x3e,
  0xae, 0x59, 0xd1, 0xbe, 0xb2, 0x69, 0x35, 0x3f, 0x17, 0x21, 0xa8, 0x3e,
  0xae, 0xe3, 0x09, 0x3f, 0x75, 0x53, 0xfc, 0xbe, 0xa4, 0x91, 0x0e, 0xbf,
  0x9b, 0x07, 0x34, 0xbe, 0xa8, 0x55, 0x52, 0xbd, 0x48, 0x0a, 0xdb, 0xbd,
  0x12, 0xf6, 0xc9, 0x3e, 0xce, 0xf0, 0xa2, 0x3e, 0x51, 0xb6, 0x05, 0x3e,
  0x0b, 0x27, 0x94, 0x3e, 0x05, 0xe7, 0xae, 0xbe, 0x34, 0x6c, 0xf2, 0xbe,
  0x86, 0x09, 0x42, 0x3e, 0x6d, 0x68, 0x94, 0x3d, 0x40, 0xdb, 0x63, 0xbe,
  0x8b, 0xd1, 0x1d, 0x3e, 0xa5, 0xca, 0x0c, 0x3f, 0x8c, 0x01, 0x84, 0xbe,
  0x23, 0x42, 0x2e, 0x3e, 0x3d, 0x3d, 0x4c, 0xbe, 0x3c, 0x6e, 0x06, 0x3f,
  0xe5, 0x1d, 0x80, 0xbe, 0x47, 0x0d, 0xce, 0xbe, 0x66, 0xe9, 0xa8, 0xbd,
  0x8d, 0xf6, 0x8a, 0xbc, 0xa9, 0x14, 0x9e, 0x3c, 0xd9, 0xd5, 0xd4, 0xbe,
  0xef, 0x0f, 0x18, 0x3f, 0xb4, 0x36, 0x15, 0x3d, 0xd1, 0xfd, 0xcc, 0xbe,
  0x7d, 0x58, 0xa4, 0x3d, 0xce, 0xea, 0x81, 0x3e, 0xb7, 0x72, 0xd7, 0x3d,
  0x3b, 0xbb, 0xe0, 0x3d, 0x77, 0xbc, 0x80, 0xbd, 0xd5, 0x49, 0xf3, 0x3e,
  0x99, 0x82, 0xd1, 0x3e, 0x52, 0x5a, 0xb0, 0xbe, 0x74, 0xd8, 0x9c, 0x3e,
  0xb8, 0x7d, 0x8e, 0xbd, 0x71, 0xeb, 0xad, 0xbe, 0xd4, 0xf7, 0xcb, 0x3e,
  0x39, 0x3a, 0xf1, 0x3d, 0xa0, 0xa3, 0x66, 0x3e, 0xc6, 0x4e, 0xcd, 0x3e,
  0x80, 0xbd, 0xd3, 0xbc, 0x8e, 0xe4, 0x19, 0x3e, 0xee, 0x63, 0x1c, 0x3e,
  0x80, 0x77, 0x0b, 0x3e, 0xea, 0x1c, 0x26, 0x3f, 0xe8, 0xe3, 0xd6, 0xbc,
  0x84, 0xe8, 0x80, 0x3e, 0xb7, 0x66, 0xc2, 0x3d, 0x4e, 0x9e, 0xa5, 0xbe,
  0x52, 0x7f, 0x24, 0xbe, 0x9a, 0x17, 0x17, 0x3f, 0x03, 0x1f, 0xa2, 0xbe,
  0x4e, 0xf5, 0xb1, 0xbe, 0x3f, 0x15, 0x23, 0x3f, 0x9e, 0x48, 0x3d, 0xbe,
  0xfb, 0xfc, 0x12, 0x3f, 0xd8, 0x3f, 0x00, 0x3e, 0xa0, 0x16, 0xa6, 0xbd,
  0x69, 0xb5, 0xbe, 0xbd, 0x4e, 0x08, 0x28, 0xbe, 0x4d, 0xe0, 0x5c, 0xbe,
  0xd7, 0x17, 0xf0, 0xbd, 0x3e, 0x54, 0xd1, 0xbd, 0xce, 0xa8, 0xc4, 0xbe,
  0x15, 0x74, 0xd3, 0x3e, 0x96, 0x0a, 0xf5, 0x3e, 0xea, 0xb1, 0xe0, 0xbd,
  0xc7, 0x12, 0x77, 0x3d, 0xe4, 0x9e, 0xbb, 0x3d, 0x75, 0x4c, 0x1b, 0xbf,
  0x60, 0x5a, 0xa8, 0x3e, 0x0d, 0x9f, 0x4c, 0xbd, 0x04, 0x32, 0x36, 0x3f,
  0xb3, 0x8d, 0xee, 0xbd, 0x09, 0x88, 0x29, 0x3f, 0x7d, 0x95, 0x76, 0x3d,
  0x11, 0xe2, 0x3d, 0x3f, 0xdf, 0x4e, 0x73, 0x3e, 0x94, 0x36, 0x25, 0x3f,
  0x9a, 0x2e, 0x91, 0xbd, 0x3b, 0xda, 0xbd, 0x3c, 0xc6, 0xf4, 0x45, 0x3c,
  0xd9, 0x14, 0x70, 0xbc, 0xe8, 0xe7, 0x28, 0x3e, 0xe3, 0x83, 0xe2, 0xbe,
  0x5f, 0x54, 0x1d, 0x3e, 0xf8, 0x81, 0x1f, 0x3f, 0x10, 0xf3, 0x67, 0x3e,
  0xc1, 0x79, 0xd5, 0xbe, 0xfc, 0xc6, 0x9e, 0x3e, 0x64, 0x9d, 0xf4, 0xbe,
  0x0e, 0xfe, 0xff, 0xff, 0x04, 0x00, 0x00, 0x00, 0x50, 0x01, 0x00, 0x00,
  0x06, 0x0d, 0xa9, 0xbe, 0x41, 0xa1, 0x0a, 0xbf, 0x18, 0x8b, 0x32, 0x3f,
  0x8a, 0x6d, 0xf9, 0x3e, 0xc3, 0x86, 0x8a, 0x3d, 0xac, 0x0f, 0x87, 0xbf,
  0x2e, 0x4f, 0x05, 0xbf, 0x10, 0x9f, 0x9c, 0xbe, 0x80, 0x8c, 0xd3, 0x3d,
  0x1b, 0x6f, 0xb0, 0xbe, 0x18, 0x95, 0xae, 0x3e, 0x31, 0x9e, 0x97, 0xbe,
  0x10, 0x89, 0xf2, 0xbe, 0xeb, 0x59, 0x85, 0x3e, 0x06, 0xe5, 0xda, 0xbe,
  0xfa, 0x87, 0x2e, 0x3f, 0xa3, 0xcf, 0x49, 0xbf, 0x61, 0xa4, 0x48, 0xbf,
  0xc4, 0xaf, 0xe3, 0x3e, 0x60, 0x22, 0x5b, 0xbf, 0x6a, 0x22, 0xf6, 0xbe,
  0x3f, 0x14, 0xf5, 0xbe, 0x10, 0x27, 0xfb, 0x3e, 0xbf, 0xaa, 0x11, 0xbf,
  0xd7, 0x6d, 0x98, 0x3e, 0x6d, 0xce, 0xec, 0x3e, 0x47, 0x16, 0xa3, 0x3e,
  0xae, 0x36, 0xcd, 0x3e, 0x9b, 0x2a, 0x94, 0x3e, 0xeb, 0x23, 0x3c, 0xbf,
  0x15, 0xdc, 0xef, 0x3d, 0xb4, 0x17, 0xb8, 0xbd, 0xd0, 0xe7, 0x8a, 0xbc,
  0xf4, 0x98, 0x9e, 0xbe, 0xaf, 0x7d, 0x19, 0xbf, 0xdc, 0xb4, 0x45, 0xbf,
  0xbc, 0x2c, 0xe7, 0xbd, 0x06, 0x9e, 0x9c, 0x3e, 0xdc, 0xa2, 0x91, 0x3e,
  0xb8, 0xe5, 0x3a, 0xbf, 0xba, 0x0e, 0x2a, 0xbd, 0x17, 0x08, 0x8d, 0x3d,
  0xe6, 0xb7, 0xc5, 0xbd, 0x0f, 0xc2, 0xb9, 0x3e, 0x48, 0xd5, 0xc0, 0xbd,
  0xb6, 0xc1, 0x28, 0xbe, 0xcd, 0x63, 0xe6, 0x3d, 0xd9, 0x76, 0x4e, 0x3e,
  0x10, 0xf3, 0x6f, 0xbd, 0xba, 0xba, 0xb2, 0x3e, 0x14, 0xf7, 0x3f, 0x3d,
  0xe2, 0x86, 0x04, 0xbf, 0xb9, 0x5b, 0x51, 0xbf, 0x1e, 0x83, 0xe6, 0x3e,
  0x79, 0xba, 0xa8, 0xbe, 0x9b, 0x52, 0x57, 0xbe, 0xea, 0xd4, 0x8f, 0x3e,
  0xab, 0xf8, 0xaf, 0xbc, 0xbe, 0x41, 0x00, 0xbf, 0xf4, 0xf1, 0xc2, 0x3d,
  0xce, 0xa7, 0x19, 0x3f, 0x35, 0x30, 0x2c, 0x3e, 0x21, 0xd2, 0xb3, 0xbe,
  0xb3, 0xa9, 0x37, 0xbe, 0x43, 0x30, 0x0b, 0xbf, 0x78, 0x32, 0xfa, 0x3e,
  0xee, 0x40, 0x20, 0xbe, 0xc0, 0x75, 0x97, 0x3d, 0x54, 0xb9, 0x00, 0xbf,
  0xf7, 0x85, 0x91, 0xbd, 0x56, 0xac, 0xf2, 0x3e, 0x79, 0xa0, 0x1d, 0xbf,
  0x33, 0x13, 0x9f, 0xbc, 0xa9, 0xa7, 0x28, 0xbf, 0xdc, 0x83, 0x59, 0x3e,
  0x30, 0x2a, 0xa3, 0x3d, 0x4b, 0x28, 0x95, 0xbe, 0x44, 0x3b, 0x9f, 0x3d,
  0x85, 0x10, 0x1a, 0x3e, 0xc0, 0xe7, 0x08, 0xbf, 0x6a, 0x31, 0xf9, 0xbc,
  0xc9, 0xc0, 0x18, 0x3f, 0x5b, 0xf6, 0x1f, 0xbe, 0x4b, 0xd8, 0x98, 0x3e,
  0x64, 0xfa, 0xff, 0xff, 0x68, 0xfa, 0xff, 0xff, 0x0f, 0x00, 0x00, 0x00,
  0x4d, 0x4c, 0x49, 0x52, 0x20, 0x43, 0x6f, 0x6e, 0x76, 0x65, 0x72, 0x74,
  0x65, 0x64, 0x2e, 0x00, 0x01, 0x00, 0x00, 0x00, 0x14, 0x00, 0x00, 0x00,
  0x00, 0x00, 0x0e, 0x00, 0x18, 0x00, 0x14, 0x00, 0x10, 0x00, 0x0c, 0x00,
  0x08, 0x00, 0x04, 0x00, 0x0e, 0x00, 0x00, 0x00, 0x14, 0x00, 0x00, 0x00,
  0x1c, 0x00, 0x00, 0x00, 0x24, 0x01, 0x00, 0x00, 0x28, 0x01, 0x00, 0x00,
  0x2c, 0x01, 0x00, 0x00, 0x04, 0x00, 0x00, 0x00, 0x6d, 0x61, 0x69, 0x6e,
  0x00, 0x00, 0x00, 0x00, 0x04, 0x00, 0x00, 0x00, 0xcc, 0x00, 0x00, 0x00,
  0x84, 0x00, 0x00, 0x00, 0x50, 0x00, 0x00, 0x00, 0x14, 0x00, 0x00, 0x00,
  0x00, 0x00, 0x0e, 0x00, 0x1a, 0x00, 0x14, 0x00, 0x10, 0x00, 0x0c, 0x00,
  0x0b, 0x00, 0x04, 0x00, 0x0e, 0x00, 0x00, 0x00, 0x1c, 0x00, 0x00, 0x00,
  0x00, 0x00, 0x00, 0x09, 0x1c, 0x00, 0x00, 0x00, 0x20, 0x00, 0x00, 0x00,
  0x01, 0x00, 0x00, 0x00, 0x00, 0x00, 0x06, 0x00, 0x08, 0x00, 0x04, 0x00,
  0x06, 0x00, 0x00, 0x00, 0x00, 0x00, 0x80, 0x3f, 0x01, 0x00, 0x00, 0x00,
  0x0a, 0x00, 0x00, 0x00, 0x01, 0x00, 0x00, 0x00, 0x09, 0x00, 0x00, 0x00,
  0x9a, 0xff, 0xff, 0xff, 0x10, 0x00, 0x00, 0x00, 0x00, 0x00, 0x00, 0x08,
  0x0c, 0x00, 0x00, 0x00, 0x10, 0x00, 0x00, 0x00, 0x2c, 0xfb, 0xff, 0xff,
  0x01, 0x00, 0x00, 0x00, 0x09, 0x00, 0x00, 0x00, 0x03, 0x00, 0x00, 0x00,
  0x08, 0x00, 0x00, 0x00, 0x01, 0x00, 0x00, 0x00, 0x03, 0x00, 0x00, 0x00,
  0xca, 0xff, 0xff, 0xff, 0x10, 0x00, 0x00, 0x00, 0x00, 0x00, 0x00, 0x08,
  0x10, 0x00, 0x00, 0x00, 0x14, 0x00, 0x00, 0x00, 0xba, 0xff, 0xff, 0xff,
  0x00, 0x00, 0x00, 0x01, 0x01, 0x00, 0x00, 0x00, 0x08, 0x00, 0x00, 0x00,
  0x03, 0x00, 0x00, 0x00, 0x07, 0x00, 0x00, 0x00, 0x02, 0x00, 0x00, 0x00,
  0x04, 0x00, 0x00, 0x00, 0x00, 0x00, 0x0e, 0x00, 0x16, 0x00, 0x00, 0x00,
  0x10, 0x00, 0x0c, 0x00, 0x0b, 0x00, 0x04, 0x00, 0x0e, 0x00, 0x00, 0x00,
  0x18, 0x00, 0x00, 0x00, 0x00, 0x00, 0x00, 0x08, 0x18, 0x00, 0x00, 0x00,
  0x1c, 0x00, 0x00, 0x00, 0x00, 0x00, 0x06, 0x00, 0x08, 0x00, 0x07, 0x00,
  0x06, 0x00, 0x00, 0x00, 0x00, 0x00, 0x00, 0x01, 0x01, 0x00, 0x00, 0x00,
  0x07, 0x00, 0x00, 0x00, 0x03, 0x00, 0x00, 0x00, 0x00, 0x00, 0x00, 0x00,
  0x06, 0x00, 0x00, 0x00, 0x05, 0x00, 0x00, 0x00, 0x01, 0x00, 0x00, 0x00,
  0x0a, 0x00, 0x00, 0x00, 0x01, 0x00, 0x00, 0x00, 0x00, 0x00, 0x00, 0x00,
  0x0b, 0x00, 0x00, 0x00, 0xfc, 0x03, 0x00, 0x00, 0xa4, 0x03, 0x00, 0x00,
  0x4c, 0x03, 0x00, 0x00, 0x10, 0x03, 0x00, 0x00, 0xb4, 0x02, 0x00, 0x00,
  0x5c, 0x02, 0x00, 0x00, 0x10, 0x02, 0x00, 0x00, 0x7c, 0x01, 0x00, 0x00,
  0xe0, 0x00, 0x00, 0x00, 0x60, 0x00, 0x00, 0x00, 0x04, 0x00, 0x00, 0x00,
  0x46, 0xfc, 0xff, 0xff, 0x00, 0x00, 0x00, 0x01, 0x14, 0x00, 0x00, 0x00,
  0x1c, 0x00, 0x00, 0x00, 0x1c, 0x00, 0x00, 0x00, 0x0b, 0x00, 0x00, 0x00,
  0x34, 0x00, 0x00, 0x00, 0x02, 0x00, 0x00, 0x00, 0xff, 0xff, 0xff, 0xff,
  0x07, 0x00, 0x00, 0x00, 0x30, 0xfc, 0xff, 0xff, 0x1b, 0x00, 0x00, 0x00,
  0x53, 0x74, 0x61, 0x74, 0x65, 0x66, 0x75, 0x6c, 0x50, 0x61, 0x72, 0x74,
  0x69, 0x74, 0x69, 0x6f, 0x6e, 0x65, 0x64, 0x43, 0x61, 0x6c, 0x6c, 0x5f,
  0x31, 0x3a, 0x30, 0x00, 0x02, 0x00, 0x00, 0x00, 0x01, 0x00, 0x00, 0x00,
  0x07, 0x00, 0x00, 0x00, 0x9e, 0xfc, 0xff, 0xff, 0x00, 0x00, 0x00, 0x01,
  0x14, 0x00, 0x00, 0x00, 0x1c, 0x00, 0x00, 0x00, 0x1c, 0x00, 0x00, 0x00,
  0x0a, 0x00, 0x00, 0x00, 0x58, 0x00, 0x00, 0x00, 0x02, 0x00, 0x00, 0x00,
  0xff, 0xff, 0xff, 0xff, 0x07, 0x00, 0x00, 0x00, 0x88, 0xfc, 0xff, 0xff,
  0x3c, 0x00, 0x00, 0x00, 0x73, 0x65, 0x71, 0x75, 0x65, 0x6e, 0x74, 0x69,
  0x61, 0x6c, 0x5f, 0x31, 0x2f, 0x64, 0x65, 0x6e, 0x73, 0x65, 0x5f, 0x32,
  0x5f, 0x31, 0x2f, 0x4d, 0x61, 0x74, 0x4d, 0x75, 0x6c, 0x3b, 0x73, 0x65,
  0x71, 0x75, 0x65, 0x6e, 0x74, 0x69, 0x61, 0x6c, 0x5f, 0x31, 0x2f, 0x64,
  0x65, 0x6e, 0x73, 0x65, 0x5f, 0x32, 0x5f, 0x31, 0x2f, 0x42, 0x69, 0x61,
  0x73, 0x41, 0x64, 0x64, 0x00, 0x00, 0x00, 0x00, 0x02, 0x00, 0x00, 0x00,
  0x01, 0x00, 0x00, 0x00, 0x07, 0x00, 0x00, 0x00, 0x1a, 0xfd, 0xff, 0xff,
  0x00, 0x00, 0x00, 0x01, 0x14, 0x00, 0x00, 0x00, 0x1c, 0x00, 0x00, 0x00,
  0x1c, 0x00, 0x00, 0x00, 0x09, 0x00, 0x00, 0x00, 0x74, 0x00, 0x00, 0x00,
  0x02, 0x00, 0x00, 0x00, 0xff, 0xff, 0xff, 0xff, 0x0c, 0x00, 0x00, 0x00,
  0x04, 0xfd, 0xff, 0xff, 0x58, 0x00, 0x00, 0x00, 0x73, 0x65, 0x71, 0x75,
  0x65, 0x6e, 0x74, 0x69, 0x61, 0x6c, 0x5f, 0x31, 0x2f, 0x64, 0x65, 0x6e,
  0x73, 0x65, 0x5f, 0x31, 0x5f, 0x32, 0x2f, 0x4d, 0x61, 0x74, 0x4d, 0x75,
  0x6c, 0x3b, 0x73, 0x65, 0x71, 0x75, 0x65, 0x6e, 0x74, 0x69, 0x61, 0x6c,
  0x5f, 0x31, 0x2f, 0x64, 0x65, 0x6e, 0x73, 0x65, 0x5f, 0x31, 0x5f, 0x32,
  0x2f, 0x52, 0x65, 0x6c, 0x75, 0x3b, 0x73, 0x65, 0x71, 0x75, 0x65, 0x6e,
  0x74, 0x69, 0x61, 0x6c, 0x5f, 0x31, 0x2f, 0x64, 0x65, 0x6e, 0x73, 0x65,
  0x5f, 0x31, 0x5f, 0x32, 0x2f, 0x42, 0x69, 0x61, 0x73, 0x41, 0x64, 0x64,
  0x00, 0x00, 0x00, 0x00, 0x02, 0x00, 0x00, 0x00, 0x01, 0x00, 0x00, 0x00,
  0x0c, 0x00, 0x00, 0x00, 0xb2, 0xfd, 0xff, 0xff, 0x00, 0x00, 0x00, 0x01,
  0x14, 0x00, 0x00, 0x00, 0x1c, 0x00, 0x00, 0x00, 0x1c, 0x00, 0x00, 0x00,
  0x08, 0x00, 0x00, 0x00, 0x6c, 0x00, 0x00, 0x00, 0x02, 0x00, 0x00, 0x00,
  0xff, 0xff, 0xff, 0xff, 0x10, 0x00, 0x00, 0x00, 0x9c, 0xfd, 0xff, 0xff,
  0x52, 0x00, 0x00, 0x00, 0x73, 0x65, 0x71, 0x75, 0x65, 0x6e, 0x74, 0x69,
  0x61, 0x6c, 0x5f, 0x31, 0x2f, 0x64, 0x65, 0x6e, 0x73, 0x65, 0x5f, 0x31,
  0x2f, 0x4d, 0x61, 0x74, 0x4d, 0x75, 0x6c, 0x3b, 0x73, 0x65, 0x71, 0x75,
  0x65, 0x6e, 0x74, 0x69, 0x61, 0x6c, 0x5f, 0x31, 0x2f, 0x64, 0x65, 0x6e,
  0x73, 0x65, 0x5f, 0x31, 0x2f, 0x52, 0x65, 0x6c, 0x75, 0x3b, 0x73, 0x65,
  0x71, 0x75, 0x65, 0x6e, 0x74, 0x69, 0x61, 0x6c, 0x5f, 0x31, 0x2f, 0x64,
  0x65, 0x6e, 0x73, 0x65, 0x5f, 0x31, 0x2f, 0x42, 0x69, 0x61, 0x73, 0x41,
  0x64, 0x64, 0x00, 0x00, 0x02, 0x00, 0x00, 0x00, 0x01, 0x00, 0x00, 0x00,
  0x10, 0x00, 0x00, 0x00, 0x96, 0xfe, 0xff, 0xff, 0x00, 0x00, 0x00, 0x01,
  0x10, 0x00, 0x00, 0x00, 0x10, 0x00, 0x00, 0x00, 0x07, 0x00, 0x00, 0x00,
  0x28, 0x00, 0x00, 0x00, 0x1c, 0xfe, 0xff, 0xff, 0x1b, 0x00, 0x00, 0x00,
  0x73, 0x65, 0x71, 0x75, 0x65, 0x6e, 0x74, 0x69, 0x61, 0x6c, 0x5f, 0x31,
  0x2f, 0x64, 0x65, 0x6e, 0x73, 0x65, 0x5f, 0x31, 0x2f, 0x4d, 0x61, 0x74,
  0x4d, 0x75, 0x6c, 0x00, 0x02, 0x00, 0x00, 0x00, 0x10, 0x00, 0x00, 0x00,
  0x08, 0x00, 0x00, 0x00, 0xde, 0xfe, 0xff, 0xff, 0x00, 0x00, 0x00, 0x01,
  0x10, 0x00, 0x00, 0x00, 0x10, 0x00, 0x00, 0x00, 0x06, 0x00, 0x00, 0x00,
  0x38, 0x00, 0x00, 0x00, 0x64, 0xfe, 0xff, 0xff, 0x2b, 0x00, 0x00, 0x00,
  0x73, 0x65, 0x71, 0x75, 0x65, 0x6e, 0x74, 0x69, 0x61, 0x6c, 0x5f, 0x31,
  0x2f, 0x64, 0x65, 0x6e, 0x73, 0x65, 0x5f, 0x31, 0x2f, 0x42, 0x69, 0x61,
  0x73, 0x41, 0x64, 0x64, 0x2f, 0x52, 0x65, 0x61, 0x64, 0x56, 0x61, 0x72,
  0x69, 0x61, 0x62, 0x6c, 0x65, 0x4f, 0x70, 0x00, 0x01, 0x00, 0x00, 0x00,
  0x10, 0x00, 0x00, 0x00, 0x32, 0xff, 0xff, 0xff, 0x00, 0x00, 0x00, 0x01,
  0x10, 0x00, 0x00, 0x00, 0x10, 0x00, 0x00, 0x00, 0x05, 0x00, 0x00, 0x00,
  0x3c, 0x00, 0x00, 0x00, 0xb8, 0xfe, 0xff, 0xff, 0x2d, 0x00, 0x00, 0x00,
  0x73, 0x65, 0x71, 0x75, 0x65, 0x6e, 0x74, 0x69, 0x61, 0x6c, 0x5f, 0x31,
  0x2f, 0x64, 0x65, 0x6e, 0x73, 0x65, 0x5f, 0x31, 0x5f, 0x32, 0x2f, 0x42,
  0x69, 0x61, 0x73, 0x41, 0x64, 0x64, 0x2f, 0x52, 0x65, 0x61, 0x64, 0x56,
  0x61, 0x72, 0x69, 0x61, 0x62, 0x6c, 0x65, 0x4f, 0x70, 0x00, 0x00, 0x00,
  0x01, 0x00, 0x00, 0x00, 0x0c, 0x00, 0x00, 0x00, 0x8a, 0xff, 0xff, 0xff,
  0x00, 0x00, 0x00, 0x01, 0x10, 0x00, 0x00, 0x00, 0x10, 0x00, 0x00, 0x00,
  0x04, 0x00, 0x00, 0x00, 0x1c, 0x00, 0x00, 0x00, 0x10, 0xff, 0xff, 0xff,
  0x0f, 0x00, 0x00, 0x00, 0x61, 0x72, 0x69, 0x74, 0x68, 0x2e, 0x63, 0x6f,
  0x6e, 0x73, 0x74, 0x61, 0x6e, 0x74, 0x32, 0x00, 0x01, 0x00, 0x00, 0x00,
  0x07, 0x00, 0x00, 0x00, 0xc2, 0xff, 0xff, 0xff, 0x00, 0x00, 0x00, 0x01,
  0x10, 0x00, 0x00, 0x00, 0x10, 0x00, 0x00, 0x00, 0x03, 0x00, 0x00, 0x00,
  0x1c, 0x00, 0x00, 0x00, 0x48, 0xff, 0xff, 0xff, 0x0f, 0x00, 0x00, 0x00,
  0x61, 0x72, 0x69, 0x74, 0x68, 0x2e, 0x63, 0x6f, 0x6e, 0x73, 0x74, 0x61,
  0x6e, 0x74, 0x31, 0x00, 0x02, 0x00, 0x00, 0x00, 0x0c, 0x00, 0x00, 0x00,
  0x10, 0x00, 0x00, 0x00, 0x00, 0x00, 0x16, 0x00, 0x18, 0x00, 0x14, 0x00,
  0x00, 0x00, 0x10, 0x00, 0x0c, 0x00, 0x08, 0x00, 0x00, 0x00, 0x00, 0x00,
  0x00, 0x00, 0x07, 0x00, 0x16, 0x00, 0x00, 0x00, 0x00, 0x00, 0x00, 0x01,
  0x10, 0x00, 0x00, 0x00, 0x10, 0x00, 0x00, 0x00, 0x02, 0x00, 0x00, 0x00,
  0x1c, 0x00, 0x00, 0x00, 0x9c, 0xff, 0xff, 0xff, 0x0e, 0x00, 0x00, 0x00,
  0x61, 0x72, 0x69, 0x74, 0x68, 0x2e, 0x63, 0x6f, 0x6e, 0x73, 0x74, 0x61,
  0x6e, 0x74, 0x00, 0x00, 0x02, 0x00, 0x00, 0x00, 0x07, 0x00, 0x00, 0x00,
  0x0c, 0x00, 0x00, 0x00, 0x00, 0x00, 0x16, 0x00, 0x1c, 0x00, 0x18, 0x00,
  0x00, 0x00, 0x14, 0x00, 0x10, 0x00, 0x0c, 0x00, 0x00, 0x00, 0x00, 0x00,
  0x08, 0x00, 0x07, 0x00, 0x16, 0x00, 0x00, 0x00, 0x00, 0x00, 0x00, 0x01,
  0x14, 0x00, 0x00, 0x00, 0x20, 0x00, 0x00, 0x00, 0x20, 0x00, 0x00, 0x00,
  0x01, 0x00, 0x00, 0x00, 0x3c, 0x00, 0x00, 0x00, 0x02, 0x00, 0x00, 0x00,
  0xff, 0xff, 0xff, 0xff, 0x08, 0x00, 0x00, 0x00, 0x04, 0x00, 0x04, 0x00,
  0x04, 0x00, 0x00, 0x00, 0x1d, 0x00, 0x00, 0x00, 0x73, 0x65, 0x72, 0x76,
  0x69, 0x6e, 0x67, 0x5f, 0x64, 0x65, 0x66, 0x61, 0x75, 0x6c, 0x74, 0x5f,
  0x69, 0x6e, 0x70, 0x75, 0x74, 0x5f, 0x6c, 0x61, 0x79, 0x65, 0x72, 0x3a,
  0x30, 0x00, 0x00, 0x00, 0x02, 0x00, 0x00, 0x00, 0x01, 0x00, 0x00, 0x00,
  0x08, 0x00, 0x00, 0x00, 0x02, 0x00, 0x00, 0x00, 0x20, 0x00, 0x00, 0x00,
  0x04, 0x00, 0x00, 0x00, 0xf4, 0xff, 0xff, 0xff, 0x19, 0x00, 0x00, 0x00,
  0x00, 0x00, 0x00, 0x19, 0x0c, 0x00, 0x0c, 0x00, 0x0b, 0x00, 0x00, 0x00,
  0x00, 0x00, 0x04, 0x00, 0x0c, 0x00, 0x00, 0x00, 0x09, 0x00, 0x00, 0x00,
  0x00, 0x00, 0x00, 0x09
};
unsigned int fertilizer_model_tflite_len = 3856;
